/*
 * Copyright (c) 2024 EdgeImpulse Inc.
 *
 * Generated by Edge Impulse and licensed under the applicable Edge Impulse
 * Terms of Service. Community and Professional Terms of Service
 * (https://docs.edgeimpulse.com/page/terms-of-service) or Enterprise Terms of
 * Service (https://docs.edgeimpulse.com/page/enterprise-terms-of-service),
 * according to your product plan subscription (the “License”).
 *
 * This software, documentation and other associated files (collectively referred
 * to as the “Software”) is a single SDK variation generated by the Edge Impulse
 * platform and requires an active paid Edge Impulse subscription to use this
 * Software for any purpose.
 *
 * You may NOT use this Software unless you have an active Edge Impulse subscription
 * that meets the eligibility requirements for the applicable License, subject to
 * your full and continued compliance with the terms and conditions of the License,
 * including without limitation any usage restrictions under the applicable License.
 *
 * If you do not have an active Edge Impulse product plan subscription, or if use
 * of this Software exceeds the usage limitations of your Edge Impulse product plan
 * subscription, you are not permitted to use this Software and must immediately
 * delete and erase all copies of this Software within your control or possession.
 * Edge Impulse reserves all rights and remedies available to enforce its rights.
 *
 * Unless required by applicable law or agreed to in writing, the Software is
 * distributed on an "AS IS" BASIS, WITHOUT WARRANTIES OR CONDITIONS OF ANY KIND,
 * either express or implied. See the License for the specific language governing
 * permissions, disclaimers and limitations under the License.
 */

#ifndef _EI_CLASSIFIER_TFLITE_LEARN_13_H_
#define _EI_CLASSIFIER_TFLITE_LEARN_13_H_

#define EI_CLASSIFIER_TFLITE_LEARN_13_ARENA_SIZE     6265
const size_t tflite_learn_13_arena_size = 6265;

#ifdef EI_CLASSIFIER_TFLITE_ARENA_SIZE
#if EI_CLASSIFIER_TFLITE_ARENA_SIZE < EI_CLASSIFIER_TFLITE_LEARN_13_ARENA_SIZE
#undef EI_CLASSIFIER_TFLITE_ARENA_SIZE
#define EI_CLASSIFIER_TFLITE_ARENA_SIZE EI_CLASSIFIER_TFLITE_LEARN_13_ARENA_SIZE
#endif // #if EI_CLASSIFIER_TFLITE_ARENA_SIZE < EI_CLASSIFIER_TFLITE_LEARN_13_ARENA_SIZE
#else
#define EI_CLASSIFIER_TFLITE_ARENA_SIZE EI_CLASSIFIER_TFLITE_LEARN_13_ARENA_SIZE
#endif // #ifdef EI_CLASSIFIER_TFLITE_ARENA_SIZE

#if defined __GNUC__
#define ALIGN(X) __attribute__((aligned(X)))
#elif defined _MSC_VER
#define ALIGN(X) __declspec(align(X))
#elif defined __TASKING__
#define ALIGN(X) __align(X)
#else
#define ALIGN(X)
#endif

ALIGN(16) const unsigned char tflite_learn_13[] = {
  0x20, 0x00, 0x00, 0x00, 0x54, 0x46, 0x4c, 0x33, 0x00, 0x00, 0x00, 0x00,
  0x14, 0x00, 0x20, 0x00, 0x1c, 0x00, 0x18, 0x00, 0x14, 0x00, 0x10, 0x00,
  0x0c, 0x00, 0x00, 0x00, 0x08, 0x00, 0x04, 0x00, 0x14, 0x00, 0x00, 0x00,
  0x1c, 0x00, 0x00, 0x00, 0x8c, 0x00, 0x00, 0x00, 0xe4, 0x00, 0x00, 0x00,
  0x60, 0x08, 0x00, 0x00, 0x70, 0x08, 0x00, 0x00, 0x7c, 0x18, 0x00, 0x00,
  0x03, 0x00, 0x00, 0x00, 0x01, 0x00, 0x00, 0x00, 0x10, 0x00, 0x00, 0x00,
  0x00, 0x00, 0x0a, 0x00, 0x10, 0x00, 0x0c, 0x00, 0x08, 0x00, 0x04, 0x00,
  0x0a, 0x00, 0x00, 0x00, 0x0c, 0x00, 0x00, 0x00, 0x1c, 0x00, 0x00, 0x00,
  0x3c, 0x00, 0x00, 0x00, 0x0f, 0x00, 0x00, 0x00, 0x73, 0x65, 0x72, 0x76,
  0x69, 0x6e, 0x67, 0x5f, 0x64, 0x65, 0x66, 0x61, 0x75, 0x6c, 0x74, 0x00,
  0x01, 0x00, 0x00, 0x00, 0x04, 0x00, 0x00, 0x00, 0x9c, 0xff, 0xff, 0xff,
  0x16, 0x00, 0x00, 0x00, 0x04, 0x00, 0x00, 0x00, 0x08, 0x00, 0x00, 0x00,
  0x6f, 0x75, 0x74, 0x70, 0x75, 0x74, 0x5f, 0x30, 0x00, 0x00, 0x00, 0x00,
  0x01, 0x00, 0x00, 0x00, 0x04, 0x00, 0x00, 0x00, 0x7a, 0xf7, 0xff, 0xff,
  0x04, 0x00, 0x00, 0x00, 0x01, 0x00, 0x00, 0x00, 0x78, 0x00, 0x00, 0x00,
  0x02, 0x00, 0x00, 0x00, 0x34, 0x00, 0x00, 0x00, 0x04, 0x00, 0x00, 0x00,
  0xdc, 0xff, 0xff, 0xff, 0x19, 0x00, 0x00, 0x00, 0x04, 0x00, 0x00, 0x00,
  0x13, 0x00, 0x00, 0x00, 0x43, 0x4f, 0x4e, 0x56, 0x45, 0x52, 0x53, 0x49,
  0x4f, 0x4e, 0x5f, 0x4d, 0x45, 0x54, 0x41, 0x44, 0x41, 0x54, 0x41, 0x00,
  0x08, 0x00, 0x0c, 0x00, 0x08, 0x00, 0x04, 0x00, 0x08, 0x00, 0x00, 0x00,
  0x18, 0x00, 0x00, 0x00, 0x04, 0x00, 0x00, 0x00, 0x13, 0x00, 0x00, 0x00,
  0x6d, 0x69, 0x6e, 0x5f, 0x72, 0x75, 0x6e, 0x74, 0x69, 0x6d, 0x65, 0x5f,
  0x76, 0x65, 0x72, 0x73, 0x69, 0x6f, 0x6e, 0x00, 0x1a, 0x00, 0x00, 0x00,
  0x78, 0x07, 0x00, 0x00, 0x70, 0x07, 0x00, 0x00, 0x50, 0x07, 0x00, 0x00,
  0x30, 0x07, 0x00, 0x00, 0x10, 0x07, 0x00, 0x00, 0xf0, 0x06, 0x00, 0x00,
  0xd8, 0x06, 0x00, 0x00, 0xbc, 0x06, 0x00, 0x00, 0x3c, 0x04, 0x00, 0x00,
  0xec, 0x03, 0x00, 0x00, 0x5c, 0x02, 0x00, 0x00, 0x2c, 0x02, 0x00, 0x00,
  0xe4, 0x00, 0x00, 0x00, 0xdc, 0x00, 0x00, 0x00, 0xd4, 0x00, 0x00, 0x00,
  0xcc, 0x00, 0x00, 0x00, 0xc4, 0x00, 0x00, 0x00, 0xbc, 0x00, 0x00, 0x00,
  0xb4, 0x00, 0x00, 0x00, 0xac, 0x00, 0x00, 0x00, 0xa4, 0x00, 0x00, 0x00,
  0x9c, 0x00, 0x00, 0x00, 0x94, 0x00, 0x00, 0x00, 0x8c, 0x00, 0x00, 0x00,
  0x6c, 0x00, 0x00, 0x00, 0x04, 0x00, 0x00, 0x00, 0x52, 0xf8, 0xff, 0xff,
  0x04, 0x00, 0x00, 0x00, 0x58, 0x00, 0x00, 0x00, 0x0c, 0x00, 0x00, 0x00,
  0x08, 0x00, 0x0e, 0x00, 0x08, 0x00, 0x04, 0x00, 0x08, 0x00, 0x00, 0x00,
  0x10, 0x00, 0x00, 0x00, 0x28, 0x00, 0x00, 0x00, 0x00, 0x00, 0x06, 0x00,
  0x08, 0x00, 0x04, 0x00, 0x06, 0x00, 0x00, 0x00, 0x04, 0x00, 0x00, 0x00,
  0x01, 0x00, 0x00, 0x00, 0xeb, 0x03, 0x00, 0x00, 0x00, 0x00, 0x0a, 0x00,
  0x10, 0x00, 0x0c, 0x00, 0x08, 0x00, 0x04, 0x00, 0x0a, 0x00, 0x00, 0x00,
  0x03, 0x00, 0x00, 0x00, 0x02, 0x00, 0x00, 0x00, 0x04, 0x00, 0x00, 0x00,
  0x06, 0x00, 0x00, 0x00, 0x32, 0x2e, 0x31, 0x31, 0x2e, 0x31, 0x00, 0x00,
  0xb6, 0xf8, 0xff, 0xff, 0x04, 0x00, 0x00, 0x00, 0x10, 0x00, 0x00, 0x00,
  0x31, 0x2e, 0x31, 0x34, 0x2e, 0x30, 0x00, 0x00, 0x00, 0x00, 0x00, 0x00,
  0x00, 0x00, 0x00, 0x00, 0x04, 0xea, 0xff, 0xff, 0x08, 0xea, 0xff, 0xff,
  0x0c, 0xea, 0xff, 0xff, 0x10, 0xea, 0xff, 0xff, 0x14, 0xea, 0xff, 0xff,
  0x18, 0xea, 0xff, 0xff, 0x1c, 0xea, 0xff, 0xff, 0x20, 0xea, 0xff, 0xff,
  0x24, 0xea, 0xff, 0xff, 0x28, 0xea, 0xff, 0xff, 0x2c, 0xea, 0xff, 0xff,
  0xfe, 0xf8, 0xff, 0xff, 0x04, 0x00, 0x00, 0x00, 0x38, 0x01, 0x00, 0x00,
  0x43, 0x7f, 0xf4, 0x29, 0x1e, 0x2d, 0x12, 0x0d, 0x0e, 0xfe, 0xf1, 0x03,
  0xff, 0xc8, 0xac, 0xf8, 0xf1, 0xe6, 0xc3, 0xd6, 0xfa, 0x02, 0x0c, 0x18,
  0xf6, 0xe0, 0xe3, 0xcf, 0x1f, 0xd8, 0x05, 0x0a, 0x10, 0xfd, 0xf6, 0xf3,
  0xe4, 0xfc, 0x0f, 0x14, 0x1c, 0x17, 0x4f, 0x3e, 0xdd, 0xad, 0xcb, 0xf5,
  0x00, 0x0c, 0x19, 0x0a, 0xb8, 0x26, 0xe0, 0xb4, 0xc5, 0x37, 0x7f, 0x56,
  0x3a, 0x07, 0xfa, 0xe7, 0xfc, 0xd9, 0xb5, 0x0a, 0xf0, 0x10, 0xdc, 0xd0,
  0xd3, 0xe5, 0xeb, 0x03, 0xfd, 0x05, 0x14, 0x23, 0xe9, 0xc0, 0xd1, 0xe9,
  0x13, 0xf6, 0x2b, 0xfc, 0xf4, 0xf6, 0xfa, 0x81, 0x1e, 0xf1, 0xf6, 0x2e,
  0xfb, 0x1c, 0x12, 0xcf, 0xdf, 0x0c, 0x1a, 0xfc, 0xb6, 0xf5, 0x12, 0x26,
  0x14, 0x1f, 0xe9, 0x10, 0xf4, 0xed, 0xff, 0xf0, 0xee, 0x81, 0xaf, 0xee,
  0x0b, 0x3a, 0x14, 0x16, 0xec, 0xf1, 0xe6, 0xf4, 0xe4, 0xf9, 0x26, 0x19,
  0x08, 0xde, 0xb2, 0xd9, 0xf8, 0x2e, 0x26, 0x27, 0x07, 0x0b, 0x0a, 0x58,
  0x2b, 0x0f, 0x0e, 0x3e, 0x1e, 0x1c, 0xfe, 0xf4, 0xfd, 0x07, 0x11, 0x03,
  0x7f, 0x38, 0xf6, 0xd0, 0xe3, 0xe2, 0x34, 0x08, 0x0e, 0xfc, 0xfe, 0xf4,
  0xdf, 0x56, 0x16, 0x00, 0xad, 0xe5, 0xed, 0xf3, 0xc8, 0xeb, 0x1e, 0x17,
  0xfc, 0x09, 0x1c, 0x79, 0xae, 0xb0, 0xed, 0x1e, 0xe1, 0xcf, 0x0d, 0xe9,
  0x18, 0xec, 0x12, 0x3a, 0x3c, 0xd9, 0x58, 0x03, 0xf6, 0xd5, 0x14, 0x0f,
  0xfd, 0xd0, 0xd4, 0xe1, 0x5c, 0x65, 0x36, 0x27, 0xd4, 0xd3, 0xdb, 0xfb,
  0xf9, 0xdf, 0xf3, 0xf6, 0xf9, 0x3c, 0x7f, 0xf8, 0x50, 0xea, 0x11, 0x04,
  0x53, 0xd9, 0xed, 0xee, 0xfe, 0xf0, 0x12, 0x7f, 0x1b, 0xfe, 0x2e, 0xe6,
  0xdd, 0xe4, 0xe3, 0xf2, 0x01, 0x0b, 0x01, 0x01, 0xc8, 0xdb, 0x0a, 0x0c,
  0xf5, 0xfe, 0xe8, 0xf9, 0x04, 0x0f, 0xf9, 0x26, 0x21, 0xec, 0xf0, 0xf8,
  0x08, 0xcf, 0xed, 0x1d, 0x1f, 0x11, 0xf5, 0x12, 0x10, 0x6e, 0x76, 0x2c,
  0xe1, 0xf2, 0xe1, 0x4b, 0xc7, 0x54, 0xbe, 0x0a, 0x1d, 0xc2, 0xfa, 0x7f,
  0x62, 0xf8, 0x33, 0xb9, 0x49, 0x15, 0x06, 0xf2, 0x0d, 0x03, 0x1e, 0xdf,
  0x5c, 0x70, 0x3a, 0x57, 0x2a, 0xec, 0x50, 0xda, 0xd5, 0x35, 0xc4, 0xfb,
  0x42, 0xfa, 0xff, 0xff, 0x04, 0x00, 0x00, 0x00, 0x20, 0x00, 0x00, 0x00,
  0x63, 0xfa, 0xff, 0xff, 0xe5, 0xf9, 0xff, 0xff, 0xb1, 0xfe, 0xff, 0xff,
  0xaa, 0xf8, 0xff, 0xff, 0x8f, 0xeb, 0xff, 0xff, 0xfd, 0xe9, 0xff, 0xff,
  0xc6, 0xf6, 0xff, 0xff, 0x09, 0xeb, 0xff, 0xff, 0x6e, 0xfa, 0xff, 0xff,
  0x04, 0x00, 0x00, 0x00, 0x80, 0x01, 0x00, 0x00, 0x48, 0xef, 0xe0, 0x4c,
  0x44, 0xf3, 0x0f, 0xbf, 0xf0, 0x17, 0xe8, 0x43, 0xf7, 0xfa, 0xfd, 0xca,
  0x62, 0x7f, 0xe7, 0x16, 0xf5, 0xaa, 0xfb, 0xc9, 0x88, 0xe7, 0xc6, 0x0e,
  0xec, 0xf4, 0x47, 0xcc, 0xe2, 0xf9, 0xce, 0x16, 0x05, 0xfe, 0xe0, 0xde,
  0x7f, 0x01, 0x0a, 0x09, 0xe1, 0xef, 0x0a, 0xdb, 0xe1, 0xe1, 0xfb, 0xc2,
  0x07, 0xf0, 0x81, 0x29, 0xb5, 0xdd, 0x15, 0xca, 0xdc, 0xfc, 0xe9, 0xfa,
  0xfe, 0xf7, 0xea, 0xb8, 0xb7, 0x02, 0x45, 0xe8, 0xe9, 0xb7, 0xa6, 0x94,
  0x3f, 0x2a, 0x09, 0x07, 0xb0, 0xb7, 0x91, 0x81, 0xf4, 0x32, 0x0a, 0x0e,
  0xd7, 0xaf, 0xbf, 0x96, 0x5a, 0xf7, 0xfd, 0x0d, 0xfa, 0xf9, 0xe3, 0xfd,
  0x27, 0x0c, 0x1d, 0xed, 0x1f, 0x13, 0x0c, 0x8f, 0xeb, 0xd1, 0x18, 0xe2,
  0x0b, 0x2a, 0x35, 0x21, 0xe0, 0xcb, 0xa4, 0x81, 0xd5, 0xfa, 0x05, 0xc6,
  0x81, 0x07, 0xcd, 0x0f, 0xcc, 0xdd, 0xff, 0xe6, 0xa5, 0xea, 0xbb, 0xf0,
  0xc3, 0xfa, 0x08, 0xc1, 0xba, 0xea, 0xd3, 0x2e, 0xfe, 0xf2, 0xff, 0x02,
  0xa5, 0x8a, 0xe9, 0xc2, 0xfd, 0xfe, 0xff, 0xf9, 0xb7, 0x94, 0xe3, 0xed,
  0x04, 0xfc, 0xfb, 0xeb, 0xac, 0x81, 0xc9, 0xbd, 0xe1, 0xe1, 0xaa, 0xf2,
  0xe4, 0x08, 0x05, 0xc4, 0xef, 0xf2, 0xbc, 0xb9, 0xf0, 0xfd, 0x24, 0xb3,
  0xed, 0xdc, 0xcc, 0x81, 0xfb, 0x10, 0x05, 0xf6, 0xc9, 0xf1, 0x0b, 0xe5,
  0x04, 0x04, 0x0b, 0xf6, 0xc2, 0xec, 0xe1, 0xe0, 0xf9, 0xf6, 0xc2, 0x57,
  0xcf, 0xc3, 0xe8, 0xe1, 0x1a, 0x00, 0x81, 0xec, 0xd6, 0xce, 0xcc, 0x06,
  0x0f, 0x1b, 0x0d, 0x09, 0xbf, 0xaa, 0x81, 0xdd, 0x00, 0xf3, 0x06, 0x0a,
  0xcf, 0xd5, 0xcf, 0xbc, 0x0b, 0x21, 0x04, 0x04, 0xb9, 0xb3, 0xd0, 0xae,
  0x0f, 0xf6, 0x05, 0x11, 0x9b, 0xca, 0xfb, 0x81, 0xf4, 0x00, 0x10, 0xe3,
  0xe2, 0xd7, 0x17, 0xaa, 0x17, 0x06, 0x1d, 0x4f, 0xf9, 0x9b, 0x81, 0xf4,
  0x06, 0xfd, 0x05, 0xe7, 0xbb, 0xb1, 0xd7, 0x01, 0x48, 0xed, 0xf1, 0xda,
  0xf8, 0xd2, 0xf3, 0x03, 0xf1, 0x3d, 0xed, 0xf5, 0xc9, 0xcb, 0x81, 0x20,
  0xfa, 0xd8, 0xfd, 0xeb, 0xee, 0xe0, 0xca, 0x21, 0x08, 0xd6, 0xe5, 0x06,
  0xd6, 0xe9, 0x33, 0xd8, 0x0e, 0xeb, 0xf0, 0x10, 0xf3, 0xfc, 0xff, 0xea,
  0x94, 0x83, 0xed, 0xd6, 0xef, 0xf8, 0x02, 0xe3, 0x8e, 0x81, 0xe6, 0xbe,
  0xfd, 0x07, 0x09, 0xfa, 0xc7, 0x86, 0xe4, 0xc4, 0x27, 0x41, 0x13, 0x66,
  0xbe, 0xd5, 0xd1, 0xdf, 0xb1, 0x7f, 0x1c, 0x22, 0xdd, 0x03, 0x0a, 0xea,
  0x66, 0xc9, 0x30, 0x5e, 0xbe, 0xbd, 0x31, 0xfb, 0xd0, 0xf9, 0xdb, 0xf7,
  0x07, 0x8a, 0xb1, 0x24, 0xd0, 0xf7, 0x14, 0xeb, 0x23, 0x81, 0xa8, 0xfe,
  0xd5, 0xfb, 0x03, 0xc8, 0xef, 0xa8, 0xec, 0x19, 0xfa, 0xfb, 0xff, 0xff,
  0x04, 0x00, 0x00, 0x00, 0x40, 0x00, 0x00, 0x00, 0xfd, 0xf3, 0xff, 0xff,
  0x2c, 0xfa, 0xff, 0xff, 0xfd, 0xff, 0xff, 0xff, 0x5e, 0xf0, 0xff, 0xff,
  0x86, 0xe9, 0xff, 0xff, 0xbe, 0x04, 0x00, 0x00, 0x5a, 0x04, 0x00, 0x00,
  0x3e, 0x01, 0x00, 0x00, 0xdf, 0xfc, 0xff, 0xff, 0xc8, 0xfa, 0xff, 0xff,
  0x01, 0x01, 0x00, 0x00, 0xcd, 0xfd, 0xff, 0xff, 0x27, 0xfb, 0xff, 0xff,
  0x99, 0x05, 0x00, 0x00, 0x58, 0xe7, 0xff, 0xff, 0x96, 0xfc, 0xff, 0xff,
  0x46, 0xfc, 0xff, 0xff, 0x04, 0x00, 0x00, 0x00, 0x70, 0x02, 0x00, 0x00,
  0x0e, 0x1b, 0x13, 0xef, 0xef, 0xff, 0xd2, 0x17, 0xe7, 0x0f, 0x0a, 0x04,
  0xee, 0xe3, 0xf6, 0xd7, 0x16, 0x25, 0xf5, 0xfd, 0x01, 0x05, 0xdd, 0xfe,
  0xe6, 0x04, 0xf7, 0xef, 0xe8, 0xda, 0x0f, 0xde, 0x1b, 0x2b, 0xd7, 0xfe,
  0x1b, 0x01, 0xe9, 0x1b, 0xec, 0xf8, 0xd2, 0xf2, 0xf1, 0xdc, 0x08, 0xd3,
  0x1a, 0x1f, 0xec, 0xe4, 0xfe, 0x13, 0xcf, 0xfe, 0xc8, 0xed, 0xf0, 0xe6,
  0xf0, 0xfc, 0x00, 0xdf, 0x17, 0x1f, 0xfb, 0xfb, 0x22, 0xfd, 0xfd, 0x04,
  0xdd, 0xda, 0xcd, 0xfd, 0xff, 0x19, 0x0c, 0xea, 0x17, 0x10, 0x04, 0xed,
  0x1c, 0xea, 0x05, 0xef, 0xda, 0xf5, 0xd3, 0xd6, 0xfe, 0x0d, 0x17, 0xd9,
  0x0d, 0x06, 0x00, 0x04, 0x00, 0x05, 0x09, 0x06, 0xe8, 0xeb, 0xbd, 0x01,
  0xfa, 0x06, 0x04, 0x07, 0x03, 0x11, 0xfc, 0xfc, 0x0f, 0xe5, 0xf3, 0xf0,
  0xf0, 0xce, 0xe2, 0xe6, 0xff, 0x11, 0x1a, 0xf9, 0x0d, 0x07, 0xec, 0x06,
  0x14, 0xfd, 0xf1, 0xb2, 0xd3, 0xe2, 0xdf, 0x0f, 0x13, 0x0f, 0x27, 0xef,
  0x15, 0x11, 0x06, 0x07, 0x21, 0xee, 0x06, 0xdc, 0xe2, 0xf6, 0xe3, 0xfd,
  0x0e, 0x0d, 0x1d, 0x0e, 0x1a, 0x0f, 0xf9, 0x0f, 0x0a, 0xe7, 0xf0, 0xdf,
  0xec, 0xf2, 0xe8, 0x0b, 0x05, 0xef, 0x15, 0x03, 0x10, 0x05, 0x0c, 0x12,
  0xf9, 0xdb, 0xfe, 0xf1, 0xe7, 0xfe, 0xfe, 0x00, 0xff, 0xf3, 0x0e, 0xfa,
  0x12, 0x1d, 0x05, 0xf3, 0xfd, 0xf7, 0xf7, 0xf5, 0xdd, 0xf9, 0x17, 0x1f,
  0xef, 0xe0, 0xfe, 0x17, 0xfb, 0x0e, 0x03, 0x0b, 0xdd, 0x0d, 0x08, 0xf0,
  0xf5, 0x0f, 0xd7, 0xcd, 0xed, 0x01, 0xfc, 0xec, 0x01, 0xf1, 0xec, 0x27,
  0xf2, 0x21, 0x12, 0xf6, 0xfd, 0x18, 0xef, 0xf0, 0xcf, 0x04, 0x08, 0xe3,
  0x03, 0xf2, 0xec, 0x17, 0xea, 0x05, 0x05, 0x02, 0x18, 0x17, 0xf8, 0x04,
  0xdb, 0x17, 0x06, 0xe0, 0x00, 0xfa, 0xe0, 0x23, 0x00, 0xef, 0xf6, 0x1f,
  0x1d, 0x30, 0xfb, 0x05, 0xd6, 0x29, 0x02, 0xfb, 0x16, 0x06, 0xf3, 0x2d,
  0xd1, 0xf6, 0x17, 0x17, 0xee, 0x2c, 0xf6, 0x1c, 0xd2, 0x1d, 0x00, 0xec,
  0xf5, 0x02, 0xf5, 0x1d, 0xe2, 0xf0, 0x23, 0x2d, 0x05, 0x2e, 0xf5, 0x20,
  0xd9, 0x2f, 0xf6, 0x08, 0xf0, 0xf2, 0xed, 0x34, 0xdf, 0xf3, 0x1f, 0x08,
  0x1b, 0x13, 0x0c, 0x1f, 0xde, 0x1e, 0xfc, 0x06, 0x00, 0x08, 0xfd, 0x1c,
  0x05, 0x11, 0x22, 0x12, 0xf6, 0x22, 0x0b, 0x18, 0xe5, 0x06, 0xe6, 0xee,
  0x0d, 0xf2, 0xe4, 0x1c, 0x09, 0x07, 0x25, 0x09, 0xf2, 0x0b, 0x09, 0x0e,
  0xfc, 0x16, 0xec, 0xff, 0xf7, 0xf2, 0xeb, 0x16, 0xe6, 0x22, 0x26, 0xee,
  0xfa, 0x0c, 0x0a, 0x11, 0xf2, 0x0c, 0x07, 0xfe, 0x0f, 0xf0, 0xd7, 0x1b,
  0x01, 0x2e, 0x26, 0xf4, 0x05, 0x14, 0xff, 0x12, 0xf5, 0x1b, 0x0b, 0x03,
  0x00, 0xe2, 0xef, 0x16, 0xe7, 0x2d, 0x1c, 0xe6, 0x1a, 0x1c, 0x04, 0xfa,
  0xf1, 0x11, 0xfc, 0x1e, 0x0e, 0xd2, 0x16, 0x24, 0x29, 0x02, 0x1c, 0xfa,
  0x28, 0x1a, 0xcb, 0xf0, 0x31, 0x12, 0x07, 0x05, 0xfc, 0xb7, 0xf6, 0xe3,
  0x12, 0xe4, 0x36, 0xa9, 0x1e, 0xd7, 0x2e, 0x10, 0x24, 0x1e, 0x12, 0x56,
  0xe5, 0xcb, 0x1c, 0xe3, 0x0e, 0xe5, 0x2e, 0x1d, 0x03, 0xb6, 0x43, 0x31,
  0x3d, 0x0f, 0xf9, 0x2e, 0xd3, 0xd9, 0x3b, 0xc1, 0x1c, 0xd0, 0xf5, 0xf6,
  0xf6, 0xae, 0x1a, 0x0f, 0x4d, 0xf3, 0xe4, 0x3e, 0xdc, 0xb9, 0x28, 0xd4,
  0x10, 0xe7, 0x47, 0xc2, 0x0d, 0xbd, 0x18, 0x06, 0x49, 0xc2, 0xd5, 0x1d,
  0xd9, 0xec, 0x19, 0xce, 0x02, 0x0e, 0xf1, 0xd2, 0x10, 0xed, 0x16, 0x00,
  0x34, 0xc1, 0xd7, 0x1d, 0xbb, 0xd4, 0x22, 0xcc, 0x0a, 0x22, 0xb0, 0xe7,
  0x21, 0xe7, 0x11, 0x06, 0x33, 0xce, 0xed, 0x15, 0xdc, 0xf1, 0x2a, 0xc3,
  0xec, 0x1d, 0x81, 0xe9, 0x08, 0xd8, 0x0f, 0xbc, 0x29, 0xc7, 0xfa, 0x15,
  0xda, 0xd1, 0x27, 0xb3, 0xcf, 0x1f, 0xd8, 0x0d, 0x2e, 0xf5, 0x08, 0xb1,
  0x16, 0xd8, 0x01, 0xeb, 0xcc, 0x12, 0x20, 0xc0, 0xb8, 0xe4, 0xc0, 0x29,
  0x34, 0xee, 0x04, 0xbb, 0x0d, 0x8d, 0xf2, 0xf7, 0xc1, 0x08, 0x2d, 0xea,
  0x01, 0xe1, 0xd6, 0x15, 0x1b, 0xfb, 0x07, 0xcc, 0xf7, 0xa7, 0xb9, 0xf5,
  0xdf, 0x09, 0x2a, 0xbc, 0xec, 0xda, 0xeb, 0x26, 0x04, 0xec, 0x07, 0xd4,
  0x19, 0xc5, 0xdf, 0xf2, 0xf4, 0x00, 0x2a, 0xb1, 0x2a, 0xed, 0xdb, 0x3d,
  0x05, 0xdb, 0x12, 0xf8, 0x02, 0x06, 0x03, 0xdb, 0xe7, 0x19, 0xc0, 0xc2,
  0xc6, 0x0b, 0xee, 0x4c, 0xf3, 0xd3, 0x27, 0xc9, 0xb6, 0x01, 0x07, 0xbe,
  0xc2, 0xfe, 0xff, 0xff, 0x04, 0x00, 0x00, 0x00, 0x0c, 0x00, 0x00, 0x00,
  0xc9, 0x11, 0x00, 0x00, 0xa6, 0xf2, 0xff, 0xff, 0xeb, 0xf7, 0xff, 0xff,
  0xda, 0xfe, 0xff, 0xff, 0x04, 0x00, 0x00, 0x00, 0x08, 0x00, 0x00, 0x00,
  0xff, 0xff, 0xff, 0xff, 0xd0, 0x00, 0x00, 0x00, 0xee, 0xfe, 0xff, 0xff,
  0x04, 0x00, 0x00, 0x00, 0x10, 0x00, 0x00, 0x00, 0x01, 0x00, 0x00, 0x00,
  0x19, 0x00, 0x00, 0x00, 0x01, 0x00, 0x00, 0x00, 0x10, 0x00, 0x00, 0x00,
  0x0a, 0xff, 0xff, 0xff, 0x04, 0x00, 0x00, 0x00, 0x10, 0x00, 0x00, 0x00,
  0x01, 0x00, 0x00, 0x00, 0x01, 0x00, 0x00, 0x00, 0x19, 0x00, 0x00, 0x00,
  0x08, 0x00, 0x00, 0x00, 0x26, 0xff, 0xff, 0xff, 0x04, 0x00, 0x00, 0x00,
  0x10, 0x00, 0x00, 0x00, 0x01, 0x00, 0x00, 0x00, 0x32, 0x00, 0x00, 0x00,
  0x01, 0x00, 0x00, 0x00, 0x08, 0x00, 0x00, 0x00, 0x42, 0xff, 0xff, 0xff,
  0x04, 0x00, 0x00, 0x00, 0x10, 0x00, 0x00, 0x00, 0x01, 0x00, 0x00, 0x00,
  0x01, 0x00, 0x00, 0x00, 0x32, 0x00, 0x00, 0x00, 0x0d, 0x00, 0x00, 0x00,
  0x90, 0xf0, 0xff, 0xff, 0x94, 0xf0, 0xff, 0xff, 0x0f, 0x00, 0x00, 0x00,
  0x4d, 0x4c, 0x49, 0x52, 0x20, 0x43, 0x6f, 0x6e, 0x76, 0x65, 0x72, 0x74,
  0x65, 0x64, 0x2e, 0x00, 0x01, 0x00, 0x00, 0x00, 0x14, 0x00, 0x00, 0x00,
  0x00, 0x00, 0x0e, 0x00, 0x18, 0x00, 0x14, 0x00, 0x10, 0x00, 0x0c, 0x00,
  0x08, 0x00, 0x04, 0x00, 0x0e, 0x00, 0x00, 0x00, 0x14, 0x00, 0x00, 0x00,
  0x1c, 0x00, 0x00, 0x00, 0x84, 0x02, 0x00, 0x00, 0x88, 0x02, 0x00, 0x00,
  0x8c, 0x02, 0x00, 0x00, 0x04, 0x00, 0x00, 0x00, 0x6d, 0x61, 0x69, 0x6e,
  0x00, 0x00, 0x00, 0x00, 0x0b, 0x00, 0x00, 0x00, 0x48, 0x02, 0x00, 0x00,
  0xec, 0x01, 0x00, 0x00, 0xb8, 0x01, 0x00, 0x00, 0x68, 0x01, 0x00, 0x00,
  0x44, 0x01, 0x00, 0x00, 0x00, 0x01, 0x00, 0x00, 0xdc, 0x00, 0x00, 0x00,
  0x9c, 0x00, 0x00, 0x00, 0x78, 0x00, 0x00, 0x00, 0x40, 0x00, 0x00, 0x00,
  0x04, 0x00, 0x00, 0x00, 0x4a, 0xfe, 0xff, 0xff, 0x1c, 0x00, 0x00, 0x00,
  0x00, 0x00, 0x00, 0x09, 0x1c, 0x00, 0x00, 0x00, 0x20, 0x00, 0x00, 0x00,
  0x04, 0x00, 0x00, 0x00, 0x00, 0x00, 0x06, 0x00, 0x08, 0x00, 0x04, 0x00,
  0x06, 0x00, 0x00, 0x00, 0x00, 0x00, 0x80, 0x3f, 0x01, 0x00, 0x00, 0x00,
  0x16, 0x00, 0x00, 0x00, 0x01, 0x00, 0x00, 0x00, 0x15, 0x00, 0x00, 0x00,
  0x82, 0xfe, 0xff, 0xff, 0x14, 0x00, 0x00, 0x00, 0x00, 0x00, 0x00, 0x08,
  0x10, 0x00, 0x00, 0x00, 0x14, 0x00, 0x00, 0x00, 0x03, 0x00, 0x00, 0x00,
  0x68, 0xf1, 0xff, 0xff, 0x01, 0x00, 0x00, 0x00, 0x15, 0x00, 0x00, 0x00,
  0x03, 0x00, 0x00, 0x00, 0x14, 0x00, 0x00, 0x00, 0x07, 0x00, 0x00, 0x00,
  0x06, 0x00, 0x00, 0x00, 0x5a, 0xfe, 0xff, 0xff, 0x08, 0x00, 0x00, 0x00,
  0x0c, 0x00, 0x00, 0x00, 0x01, 0x00, 0x00, 0x00, 0x14, 0x00, 0x00, 0x00,
  0x02, 0x00, 0x00, 0x00, 0x13, 0x00, 0x00, 0x00, 0x05, 0x00, 0x00, 0x00,
  0xd6, 0xfe, 0xff, 0xff, 0x14, 0x00, 0x00, 0x00, 0x00, 0x00, 0x00, 0x05,
  0x20, 0x00, 0x00, 0x00, 0x24, 0x00, 0x00, 0x00, 0x02, 0x00, 0x00, 0x00,
  0x42, 0xff, 0xff, 0xff, 0x02, 0x00, 0x00, 0x00, 0x01, 0x00, 0x00, 0x00,
  0x02, 0x00, 0x00, 0x00, 0x01, 0x00, 0x00, 0x00, 0x01, 0x00, 0x00, 0x00,
  0x13, 0x00, 0x00, 0x00, 0x01, 0x00, 0x00, 0x00, 0x12, 0x00, 0x00, 0x00,
  0xb6, 0xfe, 0xff, 0xff, 0x08, 0x00, 0x00, 0x00, 0x0c, 0x00, 0x00, 0x00,
  0x01, 0x00, 0x00, 0x00, 0x12, 0x00, 0x00, 0x00, 0x02, 0x00, 0x00, 0x00,
  0x11, 0x00, 0x00, 0x00, 0x04, 0x00, 0x00, 0x00, 0x32, 0xff, 0xff, 0xff,
  0x14, 0x00, 0x00, 0x00, 0x00, 0x00, 0x00, 0x01, 0x1c, 0x00, 0x00, 0x00,
  0x20, 0x00, 0x00, 0x00, 0x01, 0x00, 0x00, 0x00, 0x24, 0xff, 0xff, 0xff,
  0x00, 0x00, 0x00, 0x01, 0x01, 0x00, 0x00, 0x00, 0x01, 0x00, 0x00, 0x00,
  0x01, 0x00, 0x00, 0x00, 0x11, 0x00, 0x00, 0x00, 0x03, 0x00, 0x00, 0x00,
  0x10, 0x00, 0x00, 0x00, 0x09, 0x00, 0x00, 0x00, 0x08, 0x00, 0x00, 0x00,
  0x16, 0xff, 0xff, 0xff, 0x08, 0x00, 0x00, 0x00, 0x0c, 0x00, 0x00, 0x00,
  0x01, 0x00, 0x00, 0x00, 0x10, 0x00, 0x00, 0x00, 0x02, 0x00, 0x00, 0x00,
  0x0f, 0x00, 0x00, 0x00, 0x03, 0x00, 0x00, 0x00, 0x92, 0xff, 0xff, 0xff,
  0x24, 0x00, 0x00, 0x00, 0x00, 0x00, 0x00, 0x05, 0x30, 0x00, 0x00, 0x00,
  0x34, 0x00, 0x00, 0x00, 0x02, 0x00, 0x00, 0x00, 0x00, 0x00, 0x0e, 0x00,
  0x14, 0x00, 0x00, 0x00, 0x10, 0x00, 0x0c, 0x00, 0x08, 0x00, 0x04, 0x00,
  0x0e, 0x00, 0x00, 0x00, 0x02, 0x00, 0x00, 0x00, 0x01, 0x00, 0x00, 0x00,
  0x02, 0x00, 0x00, 0x00, 0x01, 0x00, 0x00, 0x00, 0x01, 0x00, 0x00, 0x00,
  0x0f, 0x00, 0x00, 0x00, 0x01, 0x00, 0x00, 0x00, 0x0e, 0x00, 0x00, 0x00,
  0x82, 0xff, 0xff, 0xff, 0x08, 0x00, 0x00, 0x00, 0x0c, 0x00, 0x00, 0x00,
  0x01, 0x00, 0x00, 0x00, 0x0e, 0x00, 0x00, 0x00, 0x02, 0x00, 0x00, 0x00,
  0x0d, 0x00, 0x00, 0x00, 0x02, 0x00, 0x00, 0x00, 0x00, 0x00, 0x0e, 0x00,
  0x18, 0x00, 0x14, 0x00, 0x10, 0x00, 0x0c, 0x00, 0x0b, 0x00, 0x04, 0x00,
  0x0e, 0x00, 0x00, 0x00, 0x20, 0x00, 0x00, 0x00, 0x00, 0x00, 0x00, 0x01,
  0x28, 0x00, 0x00, 0x00, 0x2c, 0x00, 0x00, 0x00, 0x01, 0x00, 0x00, 0x00,
  0x0c, 0x00, 0x10, 0x00, 0x00, 0x00, 0x0c, 0x00, 0x08, 0x00, 0x07, 0x00,
  0x0c, 0x00, 0x00, 0x00, 0x00, 0x00, 0x00, 0x01, 0x01, 0x00, 0x00, 0x00,
  0x01, 0x00, 0x00, 0x00, 0x01, 0x00, 0x00, 0x00, 0x0d, 0x00, 0x00, 0x00,
  0x03, 0x00, 0x00, 0x00, 0x0c, 0x00, 0x00, 0x00, 0x0b, 0x00, 0x00, 0x00,
  0x0a, 0x00, 0x00, 0x00, 0x00, 0x00, 0x0a, 0x00, 0x0c, 0x00, 0x00, 0x00,
  0x08, 0x00, 0x04, 0x00, 0x0a, 0x00, 0x00, 0x00, 0x08, 0x00, 0x00, 0x00,
  0x0c, 0x00, 0x00, 0x00, 0x01, 0x00, 0x00, 0x00, 0x0c, 0x00, 0x00, 0x00,
  0x02, 0x00, 0x00, 0x00, 0x00, 0x00, 0x00, 0x00, 0x01, 0x00, 0x00, 0x00,
  0x01, 0x00, 0x00, 0x00, 0x16, 0x00, 0x00, 0x00, 0x01, 0x00, 0x00, 0x00,
  0x00, 0x00, 0x00, 0x00, 0x17, 0x00, 0x00, 0x00, 0xe8, 0x0c, 0x00, 0x00,
  0x78, 0x0c, 0x00, 0x00, 0x24, 0x0c, 0x00, 0x00, 0xcc, 0x0b, 0x00, 0x00,
  0x74, 0x0b, 0x00, 0x00, 0x28, 0x0b, 0x00, 0x00, 0xac, 0x0a, 0x00, 0x00,
  0x40, 0x0a, 0x00, 0x00, 0x14, 0x09, 0x00, 0x00, 0xe8, 0x07, 0x00, 0x00,
  0x1c, 0x07, 0x00, 0x00, 0x50, 0x06, 0x00, 0x00, 0xcc, 0x05, 0x00, 0x00,
  0xe0, 0x04, 0x00, 0x00, 0x5c, 0x04, 0x00, 0x00, 0xe0, 0x03, 0x00, 0x00,
  0x5c, 0x03, 0x00, 0x00, 0x60, 0x02, 0x00, 0x00, 0xdc, 0x01, 0x00, 0x00,
  0x60, 0x01, 0x00, 0x00, 0xf4, 0x00, 0x00, 0x00, 0x70, 0x00, 0x00, 0x00,
  0x04, 0x00, 0x00, 0x00, 0x8a, 0xf3, 0xff, 0xff, 0x00, 0x00, 0x00, 0x01,
  0x14, 0x00, 0x00, 0x00, 0x30, 0x00, 0x00, 0x00, 0x17, 0x00, 0x00, 0x00,
  0x00, 0x00, 0x00, 0x09, 0x44, 0x00, 0x00, 0x00, 0x74, 0xf3, 0xff, 0xff,
  0x08, 0x00, 0x00, 0x00, 0x10, 0x00, 0x00, 0x00, 0x01, 0x00, 0x00, 0x00,
  0x80, 0xff, 0xff, 0xff, 0xff, 0xff, 0xff, 0xff, 0x01, 0x00, 0x00, 0x00,
  0x00, 0x00, 0x80, 0x3b, 0x19, 0x00, 0x00, 0x00, 0x53, 0x74, 0x61, 0x74,
  0x65, 0x66, 0x75, 0x6c, 0x50, 0x61, 0x72, 0x74, 0x69, 0x74, 0x69, 0x6f,
  0x6e, 0x65, 0x64, 0x43, 0x61, 0x6c, 0x6c, 0x3a, 0x30, 0x00, 0x00, 0x00,
  0x02, 0x00, 0x00, 0x00, 0x01, 0x00, 0x00, 0x00, 0x03, 0x00, 0x00, 0x00,
  0xf2, 0xf3, 0xff, 0xff, 0x00, 0x00, 0x00, 0x01, 0x14, 0x00, 0x00, 0x00,
  0x30, 0x00, 0x00, 0x00, 0x16, 0x00, 0x00, 0x00, 0x00, 0x00, 0x00, 0x09,
  0x5c, 0x00, 0x00, 0x00, 0xdc, 0xf3, 0xff, 0xff, 0x08, 0x00, 0x00, 0x00,
  0x10, 0x00, 0x00, 0x00, 0x01, 0x00, 0x00, 0x00, 0x16, 0x00, 0x00, 0x00,
  0x00, 0x00, 0x00, 0x00, 0x01, 0x00, 0x00, 0x00, 0x5a, 0x23, 0x09, 0x3e,
  0x32, 0x00, 0x00, 0x00, 0x73, 0x65, 0x71, 0x75, 0x65, 0x6e, 0x74, 0x69,
  0x61, 0x6c, 0x2f, 0x79, 0x5f, 0x70, 0x72, 0x65, 0x64, 0x2f, 0x4d, 0x61,
  0x74, 0x4d, 0x75, 0x6c, 0x3b, 0x73, 0x65, 0x71, 0x75, 0x65, 0x6e, 0x74,
  0x69, 0x61, 0x6c, 0x2f, 0x79, 0x5f, 0x70, 0x72, 0x65, 0x64, 0x2f, 0x42,
  0x69, 0x61, 0x73, 0x41, 0x64, 0x64, 0x00, 0x00, 0x02, 0x00, 0x00, 0x00,
  0x01, 0x00, 0x00, 0x00, 0x03, 0x00, 0x00, 0x00, 0x72, 0xf4, 0xff, 0xff,
  0x00, 0x00, 0x00, 0x01, 0x14, 0x00, 0x00, 0x00, 0x30, 0x00, 0x00, 0x00,
  0x15, 0x00, 0x00, 0x00, 0x00, 0x00, 0x00, 0x09, 0x44, 0x00, 0x00, 0x00,
  0x5c, 0xf4, 0xff, 0xff, 0x08, 0x00, 0x00, 0x00, 0x10, 0x00, 0x00, 0x00,
  0x01, 0x00, 0x00, 0x00, 0x80, 0xff, 0xff, 0xff, 0xff, 0xff, 0xff, 0xff,
  0x01, 0x00, 0x00, 0x00, 0xf2, 0x68, 0x02, 0x3d, 0x1a, 0x00, 0x00, 0x00,
  0x73, 0x65, 0x71, 0x75, 0x65, 0x6e, 0x74, 0x69, 0x61, 0x6c, 0x2f, 0x66,
  0x6c, 0x61, 0x74, 0x74, 0x65, 0x6e, 0x2f, 0x52, 0x65, 0x73, 0x68, 0x61,
  0x70, 0x65, 0x00, 0x00, 0x02, 0x00, 0x00, 0x00, 0x01, 0x00, 0x00, 0x00,
  0xd0, 0x00, 0x00, 0x00, 0xda, 0xf4, 0xff, 0xff, 0x00, 0x00, 0x00, 0x01,
  0x14, 0x00, 0x00, 0x00, 0x30, 0x00, 0x00, 0x00, 0x14, 0x00, 0x00, 0x00,
  0x00, 0x00, 0x00, 0x09, 0x4c, 0x00, 0x00, 0x00, 0xc4, 0xf4, 0xff, 0xff,
  0x08, 0x00, 0x00, 0x00, 0x10, 0x00, 0x00, 0x00, 0x01, 0x00, 0x00, 0x00,
  0x80, 0xff, 0xff, 0xff, 0xff, 0xff, 0xff, 0xff, 0x01, 0x00, 0x00, 0x00,
  0xf2, 0x68, 0x02, 0x3d, 0x22, 0x00, 0x00, 0x00, 0x73, 0x65, 0x71, 0x75,
  0x65, 0x6e, 0x74, 0x69, 0x61, 0x6c, 0x2f, 0x6d, 0x61, 0x78, 0x5f, 0x70,
  0x6f, 0x6f, 0x6c, 0x69, 0x6e, 0x67, 0x31, 0x64, 0x5f, 0x31, 0x2f, 0x4d,
  0x61, 0x78, 0x50, 0x6f, 0x6f, 0x6c, 0x00, 0x00, 0x04, 0x00, 0x00, 0x00,
  0x01, 0x00, 0x00, 0x00, 0x0d, 0x00, 0x00, 0x00, 0x01, 0x00, 0x00, 0x00,
  0x10, 0x00, 0x00, 0x00, 0x52, 0xf5, 0xff, 0xff, 0x00, 0x00, 0x00, 0x01,
  0x14, 0x00, 0x00, 0x00, 0x34, 0x00, 0x00, 0x00, 0x13, 0x00, 0x00, 0x00,
  0x00, 0x00, 0x00, 0x09, 0x54, 0x00, 0x00, 0x00, 0x3c, 0xf5, 0xff, 0xff,
  0x08, 0x00, 0x00, 0x00, 0x14, 0x00, 0x00, 0x00, 0x01, 0x00, 0x00, 0x00,
  0x80, 0xff, 0xff, 0xff, 0xff, 0xff, 0xff, 0xff, 0x00, 0x00, 0x00, 0x00,
  0x01, 0x00, 0x00, 0x00, 0xf2, 0x68, 0x02, 0x3d, 0x26, 0x00, 0x00, 0x00,
  0x73, 0x65, 0x71, 0x75, 0x65, 0x6e, 0x74, 0x69, 0x61, 0x6c, 0x2f, 0x6d,
  0x61, 0x78, 0x5f, 0x70, 0x6f, 0x6f, 0x6c, 0x69, 0x6e, 0x67, 0x31, 0x64,
  0x5f, 0x31, 0x2f, 0x45, 0x78, 0x70, 0x61, 0x6e, 0x64, 0x44, 0x69, 0x6d,
  0x73, 0x31, 0x00, 0x00, 0x04, 0x00, 0x00, 0x00, 0x01, 0x00, 0x00, 0x00,
  0x19, 0x00, 0x00, 0x00, 0x01, 0x00, 0x00, 0x00, 0x10, 0x00, 0x00, 0x00,
  0xd2, 0xf5, 0xff, 0xff, 0x00, 0x00, 0x00, 0x01, 0x14, 0x00, 0x00, 0x00,
  0x34, 0x00, 0x00, 0x00, 0x12, 0x00, 0x00, 0x00, 0x00, 0x00, 0x00, 0x09,
  0xcc, 0x00, 0x00, 0x00, 0xbc, 0xf5, 0xff, 0xff, 0x08, 0x00, 0x00, 0x00,
  0x14, 0x00, 0x00, 0x00, 0x01, 0x00, 0x00, 0x00, 0x80, 0xff, 0xff, 0xff,
  0xff, 0xff, 0xff, 0xff, 0x00, 0x00, 0x00, 0x00, 0x01, 0x00, 0x00, 0x00,
  0xf2, 0x68, 0x02, 0x3d, 0x9d, 0x00, 0x00, 0x00, 0x73, 0x65, 0x71, 0x75,
  0x65, 0x6e, 0x74, 0x69, 0x61, 0x6c, 0x2f, 0x63, 0x6f, 0x6e, 0x76, 0x31,
  0x64, 0x5f, 0x31, 0x2f, 0x52, 0x65, 0x6c, 0x75, 0x3b, 0x73, 0x65, 0x71,
  0x75, 0x65, 0x6e, 0x74, 0x69, 0x61, 0x6c, 0x2f, 0x63, 0x6f, 0x6e, 0x76,
  0x31, 0x64, 0x5f, 0x31, 0x2f, 0x42, 0x69, 0x61, 0x73, 0x41, 0x64, 0x64,
  0x3b, 0x73, 0x65, 0x71, 0x75, 0x65, 0x6e, 0x74, 0x69, 0x61, 0x6c, 0x2f,
  0x63, 0x6f, 0x6e, 0x76, 0x31, 0x64, 0x5f, 0x31, 0x2f, 0x43, 0x6f, 0x6e,
  0x76, 0x31, 0x44, 0x2f, 0x53, 0x71, 0x75, 0x65, 0x65, 0x7a, 0x65, 0x3b,
  0x73, 0x65, 0x71, 0x75, 0x65, 0x6e, 0x74, 0x69, 0x61, 0x6c, 0x2f, 0x63,
  0x6f, 0x6e, 0x76, 0x31, 0x64, 0x5f, 0x31, 0x2f, 0x42, 0x69, 0x61, 0x73,
  0x41, 0x64, 0x64, 0x2f, 0x52, 0x65, 0x61, 0x64, 0x56, 0x61, 0x72, 0x69,
  0x61, 0x62, 0x6c, 0x65, 0x4f, 0x70, 0x3b, 0x73, 0x65, 0x71, 0x75, 0x65,
  0x6e, 0x74, 0x69, 0x61, 0x6c, 0x2f, 0x63, 0x6f, 0x6e, 0x76, 0x31, 0x64,
  0x5f, 0x31, 0x2f, 0x43, 0x6f, 0x6e, 0x76, 0x31, 0x44, 0x00, 0x00, 0x00,
  0x04, 0x00, 0x00, 0x00, 0x01, 0x00, 0x00, 0x00, 0x01, 0x00, 0x00, 0x00,
  0x19, 0x00, 0x00, 0x00, 0x10, 0x00, 0x00, 0x00, 0xca, 0xf6, 0xff, 0xff,
  0x00, 0x00, 0x00, 0x01, 0x14, 0x00, 0x00, 0x00, 0x34, 0x00, 0x00, 0x00,
  0x11, 0x00, 0x00, 0x00, 0x00, 0x00, 0x00, 0x09, 0x54, 0x00, 0x00, 0x00,
  0xb4, 0xf6, 0xff, 0xff, 0x08, 0x00, 0x00, 0x00, 0x14, 0x00, 0x00, 0x00,
  0x01, 0x00, 0x00, 0x00, 0x80, 0xff, 0xff, 0xff, 0xff, 0xff, 0xff, 0xff,
  0x00, 0x00, 0x00, 0x00, 0x01, 0x00, 0x00, 0x00, 0x56, 0x28, 0x44, 0x3d,
  0x26, 0x00, 0x00, 0x00, 0x73, 0x65, 0x71, 0x75, 0x65, 0x6e, 0x74, 0x69,
  0x61, 0x6c, 0x2f, 0x63, 0x6f, 0x6e, 0x76, 0x31, 0x64, 0x5f, 0x31, 0x2f,
  0x43, 0x6f, 0x6e, 0x76, 0x31, 0x44, 0x2f, 0x45, 0x78, 0x70, 0x61, 0x6e,
  0x64, 0x44, 0x69, 0x6d, 0x73, 0x31, 0x00, 0x00, 0x04, 0x00, 0x00, 0x00,
  0x01, 0x00, 0x00, 0x00, 0x01, 0x00, 0x00, 0x00, 0x19, 0x00, 0x00, 0x00,
  0x08, 0x00, 0x00, 0x00, 0x4a, 0xf7, 0xff, 0xff, 0x00, 0x00, 0x00, 0x01,
  0x14, 0x00, 0x00, 0x00, 0x30, 0x00, 0x00, 0x00, 0x10, 0x00, 0x00, 0x00,
  0x00, 0x00, 0x00, 0x09, 0x4c, 0x00, 0x00, 0x00, 0x34, 0xf7, 0xff, 0xff,
  0x08, 0x00, 0x00, 0x00, 0x10, 0x00, 0x00, 0x00, 0x01, 0x00, 0x00, 0x00,
  0x80, 0xff, 0xff, 0xff, 0xff, 0xff, 0xff, 0xff, 0x01, 0x00, 0x00, 0x00,
  0x56, 0x28, 0x44, 0x3d, 0x20, 0x00, 0x00, 0x00, 0x73, 0x65, 0x71, 0x75,
  0x65, 0x6e, 0x74, 0x69, 0x61, 0x6c, 0x2f, 0x6d, 0x61, 0x78, 0x5f, 0x70,
  0x6f, 0x6f, 0x6c, 0x69, 0x6e, 0x67, 0x31, 0x64, 0x2f, 0x4d, 0x61, 0x78,
  0x50, 0x6f, 0x6f, 0x6c, 0x00, 0x00, 0x00, 0x00, 0x04, 0x00, 0x00, 0x00,
  0x01, 0x00, 0x00, 0x00, 0x19, 0x00, 0x00, 0x00, 0x01, 0x00, 0x00, 0x00,
  0x08, 0x00, 0x00, 0x00, 0xc2, 0xf7, 0xff, 0xff, 0x00, 0x00, 0x00, 0x01,
  0x14, 0x00, 0x00, 0x00, 0x34, 0x00, 0x00, 0x00, 0x0f, 0x00, 0x00, 0x00,
  0x00, 0x00, 0x00, 0x09, 0x54, 0x00, 0x00, 0x00, 0xac, 0xf7, 0xff, 0xff,
  0x08, 0x00, 0x00, 0x00, 0x14, 0x00, 0x00, 0x00, 0x01, 0x00, 0x00, 0x00,
  0x80, 0xff, 0xff, 0xff, 0xff, 0xff, 0xff, 0xff, 0x00, 0x00, 0x00, 0x00,
  0x01, 0x00, 0x00, 0x00, 0x56, 0x28, 0x44, 0x3d, 0x24, 0x00, 0x00, 0x00,
  0x73, 0x65, 0x71, 0x75, 0x65, 0x6e, 0x74, 0x69, 0x61, 0x6c, 0x2f, 0x6d,
  0x61, 0x78, 0x5f, 0x70, 0x6f, 0x6f, 0x6c, 0x69, 0x6e, 0x67, 0x31, 0x64,
  0x2f, 0x45, 0x78, 0x70, 0x61, 0x6e, 0x64, 0x44, 0x69, 0x6d, 0x73, 0x31,
  0x00, 0x00, 0x00, 0x00, 0x04, 0x00, 0x00, 0x00, 0x01, 0x00, 0x00, 0x00,
  0x32, 0x00, 0x00, 0x00, 0x01, 0x00, 0x00, 0x00, 0x08, 0x00, 0x00, 0x00,
  0x42, 0xf8, 0xff, 0xff, 0x00, 0x00, 0x00, 0x01, 0x14, 0x00, 0x00, 0x00,
  0x30, 0x00, 0x00, 0x00, 0x0e, 0x00, 0x00, 0x00, 0x00, 0x00, 0x00, 0x09,
  0xbc, 0x00, 0x00, 0x00, 0x2c, 0xf8, 0xff, 0xff, 0x08, 0x00, 0x00, 0x00,
  0x10, 0x00, 0x00, 0x00, 0x01, 0x00, 0x00, 0x00, 0x80, 0xff, 0xff, 0xff,
  0xff, 0xff, 0xff, 0xff, 0x01, 0x00, 0x00, 0x00, 0x56, 0x28, 0x44, 0x3d,
  0x93, 0x00, 0x00, 0x00, 0x73, 0x65, 0x71, 0x75, 0x65, 0x6e, 0x74, 0x69,
  0x61, 0x6c, 0x2f, 0x63, 0x6f, 0x6e, 0x76, 0x31, 0x64, 0x2f, 0x52, 0x65,
  0x6c, 0x75, 0x3b, 0x73, 0x65, 0x71, 0x75, 0x65, 0x6e, 0x74, 0x69, 0x61,
  0x6c, 0x2f, 0x63, 0x6f, 0x6e, 0x76, 0x31, 0x64, 0x2f, 0x42, 0x69, 0x61,
  0x73, 0x41, 0x64, 0x64, 0x3b, 0x73, 0x65, 0x71, 0x75, 0x65, 0x6e, 0x74,
  0x69, 0x61, 0x6c, 0x2f, 0x63, 0x6f, 0x6e, 0x76, 0x31, 0x64, 0x2f, 0x43,
  0x6f, 0x6e, 0x76, 0x31, 0x44, 0x2f, 0x53, 0x71, 0x75, 0x65, 0x65, 0x7a,
  0x65, 0x3b, 0x73, 0x65, 0x71, 0x75, 0x65, 0x6e, 0x74, 0x69, 0x61, 0x6c,
  0x2f, 0x63, 0x6f, 0x6e, 0x76, 0x31, 0x64, 0x2f, 0x42, 0x69, 0x61, 0x73,
  0x41, 0x64, 0x64, 0x2f, 0x52, 0x65, 0x61, 0x64, 0x56, 0x61, 0x72, 0x69,
  0x61, 0x62, 0x6c, 0x65, 0x4f, 0x70, 0x3b, 0x73, 0x65, 0x71, 0x75, 0x65,
  0x6e, 0x74, 0x69, 0x61, 0x6c, 0x2f, 0x63, 0x6f, 0x6e, 0x76, 0x31, 0x64,
  0x2f, 0x43, 0x6f, 0x6e, 0x76, 0x31, 0x44, 0x00, 0x04, 0x00, 0x00, 0x00,
  0x01, 0x00, 0x00, 0x00, 0x01, 0x00, 0x00, 0x00, 0x32, 0x00, 0x00, 0x00,
  0x08, 0x00, 0x00, 0x00, 0x2a, 0xf9, 0xff, 0xff, 0x00, 0x00, 0x00, 0x01,
  0x14, 0x00, 0x00, 0x00, 0x34, 0x00, 0x00, 0x00, 0x0d, 0x00, 0x00, 0x00,
  0x00, 0x00, 0x00, 0x09, 0x54, 0x00, 0x00, 0x00, 0x14, 0xf9, 0xff, 0xff,
  0x08, 0x00, 0x00, 0x00, 0x14, 0x00, 0x00, 0x00, 0x01, 0x00, 0x00, 0x00,
  0x0f, 0x00, 0x00, 0x00, 0x00, 0x00, 0x00, 0x00, 0x00, 0x00, 0x00, 0x00,
  0x01, 0x00, 0x00, 0x00, 0x4d, 0xe3, 0x62, 0x3d, 0x24, 0x00, 0x00, 0x00,
  0x73, 0x65, 0x71, 0x75, 0x65, 0x6e, 0x74, 0x69, 0x61, 0x6c, 0x2f, 0x63,
  0x6f, 0x6e, 0x76, 0x31, 0x64, 0x2f, 0x43, 0x6f, 0x6e, 0x76, 0x31, 0x44,
  0x2f, 0x45, 0x78, 0x70, 0x61, 0x6e, 0x64, 0x44, 0x69, 0x6d, 0x73, 0x31,
  0x00, 0x00, 0x00, 0x00, 0x04, 0x00, 0x00, 0x00, 0x01, 0x00, 0x00, 0x00,
  0x01, 0x00, 0x00, 0x00, 0x32, 0x00, 0x00, 0x00, 0x0d, 0x00, 0x00, 0x00,
  0xaa, 0xf9, 0xff, 0xff, 0x00, 0x00, 0x00, 0x01, 0x14, 0x00, 0x00, 0x00,
  0x88, 0x00, 0x00, 0x00, 0x0c, 0x00, 0x00, 0x00, 0x00, 0x00, 0x00, 0x09,
  0x9c, 0x00, 0x00, 0x00, 0x94, 0xf9, 0xff, 0xff, 0x08, 0x00, 0x00, 0x00,
  0x4c, 0x00, 0x00, 0x00, 0x08, 0x00, 0x00, 0x00, 0x00, 0x00, 0x00, 0x00,
  0x00, 0x00, 0x00, 0x00, 0x00, 0x00, 0x00, 0x00, 0x00, 0x00, 0x00, 0x00,
  0x00, 0x00, 0x00, 0x00, 0x00, 0x00, 0x00, 0x00, 0x00, 0x00, 0x00, 0x00,
  0x00, 0x00, 0x00, 0x00, 0x00, 0x00, 0x00, 0x00, 0x00, 0x00, 0x00, 0x00,
  0x00, 0x00, 0x00, 0x00, 0x00, 0x00, 0x00, 0x00, 0x00, 0x00, 0x00, 0x00,
  0x00, 0x00, 0x00, 0x00, 0x00, 0x00, 0x00, 0x00, 0x00, 0x00, 0x00, 0x00,
  0x00, 0x00, 0x00, 0x00, 0x08, 0x00, 0x00, 0x00, 0xa0, 0x7c, 0x34, 0x3c,
  0xf6, 0x2d, 0xff, 0x3b, 0x57, 0xf3, 0xfa, 0x3b, 0x3a, 0x6f, 0x23, 0x3c,
  0xf3, 0xc8, 0xa0, 0x3b, 0xc6, 0xf0, 0xbd, 0x3b, 0x27, 0xb4, 0x21, 0x3c,
  0xa4, 0xe1, 0x92, 0x3b, 0x18, 0x00, 0x00, 0x00, 0x73, 0x65, 0x71, 0x75,
  0x65, 0x6e, 0x74, 0x69, 0x61, 0x6c, 0x2f, 0x63, 0x6f, 0x6e, 0x76, 0x31,
  0x64, 0x2f, 0x43, 0x6f, 0x6e, 0x76, 0x31, 0x44, 0x00, 0x00, 0x00, 0x00,
  0x04, 0x00, 0x00, 0x00, 0x08, 0x00, 0x00, 0x00, 0x01, 0x00, 0x00, 0x00,
  0x03, 0x00, 0x00, 0x00, 0x0d, 0x00, 0x00, 0x00, 0x72, 0xfa, 0xff, 0xff,
  0x00, 0x00, 0x00, 0x01, 0x14, 0x00, 0x00, 0x00, 0x84, 0x00, 0x00, 0x00,
  0x0b, 0x00, 0x00, 0x00, 0x00, 0x00, 0x00, 0x02, 0xa8, 0x00, 0x00, 0x00,
  0x5c, 0xfa, 0xff, 0xff, 0x08, 0x00, 0x00, 0x00, 0x48, 0x00, 0x00, 0x00,
  0x08, 0x00, 0x00, 0x00, 0x00, 0x00, 0x00, 0x00, 0x00, 0x00, 0x00, 0x00,
  0x00, 0x00, 0x00, 0x00, 0x00, 0x00, 0x00, 0x00, 0x00, 0x00, 0x00, 0x00,
  0x00, 0x00, 0x00, 0x00, 0x00, 0x00, 0x00, 0x00, 0x00, 0x00, 0x00, 0x00,
  0x00, 0x00, 0x00, 0x00, 0x00, 0x00, 0x00, 0x00, 0x00, 0x00, 0x00, 0x00,
  0x00, 0x00, 0x00, 0x00, 0x00, 0x00, 0x00, 0x00, 0x00, 0x00, 0x00, 0x00,
  0x00, 0x00, 0x00, 0x00, 0x00, 0x00, 0x00, 0x00, 0x08, 0x00, 0x00, 0x00,
  0x46, 0xf6, 0x1f, 0x3a, 0x26, 0x29, 0xe2, 0x39, 0xa4, 0x69, 0xde, 0x39,
  0x4e, 0xd9, 0x10, 0x3a, 0x29, 0x80, 0x8e, 0x39, 0x34, 0x57, 0xa8, 0x39,
  0x9e, 0x50, 0x0f, 0x3a, 0x9d, 0x2d, 0x82, 0x39, 0x28, 0x00, 0x00, 0x00,
  0x73, 0x65, 0x71, 0x75, 0x65, 0x6e, 0x74, 0x69, 0x61, 0x6c, 0x2f, 0x63,
  0x6f, 0x6e, 0x76, 0x31, 0x64, 0x2f, 0x42, 0x69, 0x61, 0x73, 0x41, 0x64,
  0x64, 0x2f, 0x52, 0x65, 0x61, 0x64, 0x56, 0x61, 0x72, 0x69, 0x61, 0x62,
  0x6c, 0x65, 0x4f, 0x70, 0x00, 0x00, 0x00, 0x00, 0x01, 0x00, 0x00, 0x00,
  0x08, 0x00, 0x00, 0x00, 0x3a, 0xfb, 0xff, 0xff, 0x00, 0x00, 0x00, 0x01,
  0x14, 0x00, 0x00, 0x00, 0xe8, 0x00, 0x00, 0x00, 0x0a, 0x00, 0x00, 0x00,
  0x00, 0x00, 0x00, 0x09, 0xfc, 0x00, 0x00, 0x00, 0x24, 0xfb, 0xff, 0xff,
  0x08, 0x00, 0x00, 0x00, 0x8c, 0x00, 0x00, 0x00, 0x10, 0x00, 0x00, 0x00,
  0x00, 0x00, 0x00, 0x00, 0x00, 0x00, 0x00, 0x00, 0x00, 0x00, 0x00, 0x00,
  0x00, 0x00, 0x00, 0x00, 0x00, 0x00, 0x00, 0x00, 0x00, 0x00, 0x00, 0x00,
  0x00, 0x00, 0x00, 0x00, 0x00, 0x00, 0x00, 0x00, 0x00, 0x00, 0x00, 0x00,
  0x00, 0x00, 0x00, 0x00, 0x00, 0x00, 0x00, 0x00, 0x00, 0x00, 0x00, 0x00,
  0x00, 0x00, 0x00, 0x00, 0x00, 0x00, 0x00, 0x00, 0x00, 0x00, 0x00, 0x00,
  0x00, 0x00, 0x00, 0x00, 0x00, 0x00, 0x00, 0x00, 0x00, 0x00, 0x00, 0x00,
  0x00, 0x00, 0x00, 0x00, 0x00, 0x00, 0x00, 0x00, 0x00, 0x00, 0x00, 0x00,
  0x00, 0x00, 0x00, 0x00, 0x00, 0x00, 0x00, 0x00, 0x00, 0x00, 0x00, 0x00,
  0x00, 0x00, 0x00, 0x00, 0x00, 0x00, 0x00, 0x00, 0x00, 0x00, 0x00, 0x00,
  0x00, 0x00, 0x00, 0x00, 0x00, 0x00, 0x00, 0x00, 0x00, 0x00, 0x00, 0x00,
  0x00, 0x00, 0x00, 0x00, 0x00, 0x00, 0x00, 0x00, 0x00, 0x00, 0x00, 0x00,
  0x10, 0x00, 0x00, 0x00, 0xd9, 0x60, 0x8c, 0x3b, 0x6a, 0x56, 0xc8, 0x3b,
  0xda, 0x07, 0x17, 0x3c, 0x71, 0xc7, 0xba, 0x3b, 0x9c, 0xd1, 0xbb, 0x3b,
  0x3c, 0x36, 0x23, 0x3c, 0x9c, 0x87, 0x93, 0x3c, 0xad, 0xcf, 0x49, 0x3c,
  0x61, 0xe6, 0x09, 0x3c, 0x2c, 0x13, 0x49, 0x3c, 0xb4, 0x93, 0xf0, 0x3b,
  0xd1, 0xc8, 0xf1, 0x3b, 0x67, 0x66, 0x3a, 0x3c, 0x19, 0xb2, 0x52, 0x3c,
  0x36, 0x79, 0x2f, 0x3b, 0xea, 0x92, 0x2a, 0x3c, 0x1a, 0x00, 0x00, 0x00,
  0x73, 0x65, 0x71, 0x75, 0x65, 0x6e, 0x74, 0x69, 0x61, 0x6c, 0x2f, 0x63,
  0x6f, 0x6e, 0x76, 0x31, 0x64, 0x5f, 0x31, 0x2f, 0x43, 0x6f, 0x6e, 0x76,
  0x31, 0x44, 0x00, 0x00, 0x04, 0x00, 0x00, 0x00, 0x10, 0x00, 0x00, 0x00,
  0x01, 0x00, 0x00, 0x00, 0x03, 0x00, 0x00, 0x00, 0x08, 0x00, 0x00, 0x00,
  0x62, 0xfc, 0xff, 0xff, 0x00, 0x00, 0x00, 0x01, 0x14, 0x00, 0x00, 0x00,
  0xe4, 0x00, 0x00, 0x00, 0x09, 0x00, 0x00, 0x00, 0x00, 0x00, 0x00, 0x02,
  0x08, 0x01, 0x00, 0x00, 0x4c, 0xfc, 0xff, 0xff, 0x08, 0x00, 0x00, 0x00,
  0x88, 0x00, 0x00, 0x00, 0x10, 0x00, 0x00, 0x00, 0x00, 0x00, 0x00, 0x00,
  0x00, 0x00, 0x00, 0x00, 0x00, 0x00, 0x00, 0x00, 0x00, 0x00, 0x00, 0x00,
  0x00, 0x00, 0x00, 0x00, 0x00, 0x00, 0x00, 0x00, 0x00, 0x00, 0x00, 0x00,
  0x00, 0x00, 0x00, 0x00, 0x00, 0x00, 0x00, 0x00, 0x00, 0x00, 0x00, 0x00,
  0x00, 0x00, 0x00, 0x00, 0x00, 0x00, 0x00, 0x00, 0x00, 0x00, 0x00, 0x00,
  0x00, 0x00, 0x00, 0x00, 0x00, 0x00, 0x00, 0x00, 0x00, 0x00, 0x00, 0x00,
  0x00, 0x00, 0x00, 0x00, 0x00, 0x00, 0x00, 0x00, 0x00, 0x00, 0x00, 0x00,
  0x00, 0x00, 0x00, 0x00, 0x00, 0x00, 0x00, 0x00, 0x00, 0x00, 0x00, 0x00,
  0x00, 0x00, 0x00, 0x00, 0x00, 0x00, 0x00, 0x00, 0x00, 0x00, 0x00, 0x00,
  0x00, 0x00, 0x00, 0x00, 0x00, 0x00, 0x00, 0x00, 0x00, 0x00, 0x00, 0x00,
  0x00, 0x00, 0x00, 0x00, 0x00, 0x00, 0x00, 0x00, 0x00, 0x00, 0x00, 0x00,
  0x00, 0x00, 0x00, 0x00, 0x10, 0x00, 0x00, 0x00, 0x89, 0x20, 0x57, 0x39,
  0xba, 0x81, 0x99, 0x39, 0x9e, 0x73, 0xe7, 0x39, 0x20, 0x1e, 0x8f, 0x39,
  0x13, 0xea, 0x8f, 0x39, 0x7a, 0x1e, 0xfa, 0x39, 0x24, 0x16, 0x62, 0x3a,
  0xcd, 0xa2, 0x1a, 0x3a, 0x39, 0x54, 0xd3, 0x39, 0x5c, 0x12, 0x1a, 0x3a,
  0xfe, 0x56, 0xb8, 0x39, 0xd9, 0x43, 0xb9, 0x39, 0xc5, 0xd3, 0x0e, 0x3a,
  0x8e, 0x71, 0x21, 0x3a, 0x73, 0x74, 0x06, 0x39, 0x5b, 0xb3, 0x02, 0x3a,
  0x2a, 0x00, 0x00, 0x00, 0x73, 0x65, 0x71, 0x75, 0x65, 0x6e, 0x74, 0x69,
  0x61, 0x6c, 0x2f, 0x63, 0x6f, 0x6e, 0x76, 0x31, 0x64, 0x5f, 0x31, 0x2f,
  0x42, 0x69, 0x61, 0x73, 0x41, 0x64, 0x64, 0x2f, 0x52, 0x65, 0x61, 0x64,
  0x56, 0x61, 0x72, 0x69, 0x61, 0x62, 0x6c, 0x65, 0x4f, 0x70, 0x00, 0x00,
  0x01, 0x00, 0x00, 0x00, 0x10, 0x00, 0x00, 0x00, 0x8a, 0xfd, 0xff, 0xff,
  0x00, 0x00, 0x00, 0x01, 0x14, 0x00, 0x00, 0x00, 0x30, 0x00, 0x00, 0x00,
  0x08, 0x00, 0x00, 0x00, 0x00, 0x00, 0x00, 0x09, 0x44, 0x00, 0x00, 0x00,
  0x74, 0xfd, 0xff, 0xff, 0x08, 0x00, 0x00, 0x00, 0x10, 0x00, 0x00, 0x00,
  0x01, 0x00, 0x00, 0x00, 0x00, 0x00, 0x00, 0x00, 0x00, 0x00, 0x00, 0x00,
  0x01, 0x00, 0x00, 0x00, 0xe0, 0xed, 0x1c, 0x3c, 0x18, 0x00, 0x00, 0x00,
  0x73, 0x65, 0x71, 0x75, 0x65, 0x6e, 0x74, 0x69, 0x61, 0x6c, 0x2f, 0x79,
  0x5f, 0x70, 0x72, 0x65, 0x64, 0x2f, 0x4d, 0x61, 0x74, 0x4d, 0x75, 0x6c,
  0x00, 0x00, 0x00, 0x00, 0x02, 0x00, 0x00, 0x00, 0x03, 0x00, 0x00, 0x00,
  0xd0, 0x00, 0x00, 0x00, 0xf2, 0xfd, 0xff, 0xff, 0x00, 0x00, 0x00, 0x01,
  0x14, 0x00, 0x00, 0x00, 0x34, 0x00, 0x00, 0x00, 0x07, 0x00, 0x00, 0x00,
  0x00, 0x00, 0x00, 0x02, 0x58, 0x00, 0x00, 0x00, 0xdc, 0xfd, 0xff, 0xff,
  0x08, 0x00, 0x00, 0x00, 0x14, 0x00, 0x00, 0x00, 0x01, 0x00, 0x00, 0x00,
  0x00, 0x00, 0x00, 0x00, 0x00, 0x00, 0x00, 0x00, 0x00, 0x00, 0x00, 0x00,
  0x01, 0x00, 0x00, 0x00, 0x41, 0xe2, 0x9f, 0x39, 0x28, 0x00, 0x00, 0x00,
  0x73, 0x65, 0x71, 0x75, 0x65, 0x6e, 0x74, 0x69, 0x61, 0x6c, 0x2f, 0x79,
  0x5f, 0x70, 0x72, 0x65, 0x64, 0x2f, 0x42, 0x69, 0x61, 0x73, 0x41, 0x64,
  0x64, 0x2f, 0x52, 0x65, 0x61, 0x64, 0x56, 0x61, 0x72, 0x69, 0x61, 0x62,
  0x6c, 0x65, 0x4f, 0x70, 0x00, 0x00, 0x00, 0x00, 0x01, 0x00, 0x00, 0x00,
  0x03, 0x00, 0x00, 0x00, 0x6a, 0xfe, 0xff, 0xff, 0x00, 0x00, 0x00, 0x01,
  0x14, 0x00, 0x00, 0x00, 0x14, 0x00, 0x00, 0x00, 0x06, 0x00, 0x00, 0x00,
  0x00, 0x00, 0x00, 0x02, 0x28, 0x00, 0x00, 0x00, 0xc0, 0xfe, 0xff, 0xff,
  0x18, 0x00, 0x00, 0x00, 0x73, 0x65, 0x71, 0x75, 0x65, 0x6e, 0x74, 0x69,
  0x61, 0x6c, 0x2f, 0x66, 0x6c, 0x61, 0x74, 0x74, 0x65, 0x6e, 0x2f, 0x43,
  0x6f, 0x6e, 0x73, 0x74, 0x00, 0x00, 0x00, 0x00, 0x01, 0x00, 0x00, 0x00,
  0x02, 0x00, 0x00, 0x00, 0xb2, 0xfe, 0xff, 0xff, 0x00, 0x00, 0x00, 0x01,
  0x14, 0x00, 0x00, 0x00, 0x14, 0x00, 0x00, 0x00, 0x05, 0x00, 0x00, 0x00,
  0x00, 0x00, 0x00, 0x02, 0x34, 0x00, 0x00, 0x00, 0x08, 0xff, 0xff, 0xff,
  0x25, 0x00, 0x00, 0x00, 0x73, 0x65, 0x71, 0x75, 0x65, 0x6e, 0x74, 0x69,
  0x61, 0x6c, 0x2f, 0x6d, 0x61, 0x78, 0x5f, 0x70, 0x6f, 0x6f, 0x6c, 0x69,
  0x6e, 0x67, 0x31, 0x64, 0x5f, 0x31, 0x2f, 0x45, 0x78, 0x70, 0x61, 0x6e,
  0x64, 0x44, 0x69, 0x6d, 0x73, 0x00, 0x00, 0x00, 0x01, 0x00, 0x00, 0x00,
  0x04, 0x00, 0x00, 0x00, 0x06, 0xff, 0xff, 0xff, 0x00, 0x00, 0x00, 0x01,
  0x14, 0x00, 0x00, 0x00, 0x14, 0x00, 0x00, 0x00, 0x04, 0x00, 0x00, 0x00,
  0x00, 0x00, 0x00, 0x02, 0x34, 0x00, 0x00, 0x00, 0x5c, 0xff, 0xff, 0xff,
  0x25, 0x00, 0x00, 0x00, 0x73, 0x65, 0x71, 0x75, 0x65, 0x6e, 0x74, 0x69,
  0x61, 0x6c, 0x2f, 0x63, 0x6f, 0x6e, 0x76, 0x31, 0x64, 0x5f, 0x31, 0x2f,
  0x43, 0x6f, 0x6e, 0x76, 0x31, 0x44, 0x2f, 0x45, 0x78, 0x70, 0x61, 0x6e,
  0x64, 0x44, 0x69, 0x6d, 0x73, 0x00, 0x00, 0x00, 0x01, 0x00, 0x00, 0x00,
  0x04, 0x00, 0x00, 0x00, 0x5a, 0xff, 0xff, 0xff, 0x00, 0x00, 0x00, 0x01,
  0x14, 0x00, 0x00, 0x00, 0x14, 0x00, 0x00, 0x00, 0x03, 0x00, 0x00, 0x00,
  0x00, 0x00, 0x00, 0x02, 0x30, 0x00, 0x00, 0x00, 0xb0, 0xff, 0xff, 0xff,
  0x23, 0x00, 0x00, 0x00, 0x73, 0x65, 0x71, 0x75, 0x65, 0x6e, 0x74, 0x69,
  0x61, 0x6c, 0x2f, 0x6d, 0x61, 0x78, 0x5f, 0x70, 0x6f, 0x6f, 0x6c, 0x69,
  0x6e, 0x67, 0x31, 0x64, 0x2f, 0x45, 0x78, 0x70, 0x61, 0x6e, 0x64, 0x44,
  0x69, 0x6d, 0x73, 0x00, 0x01, 0x00, 0x00, 0x00, 0x04, 0x00, 0x00, 0x00,
  0xaa, 0xff, 0xff, 0xff, 0x00, 0x00, 0x00, 0x01, 0x18, 0x00, 0x00, 0x00,
  0x18, 0x00, 0x00, 0x00, 0x02, 0x00, 0x00, 0x00, 0x00, 0x00, 0x00, 0x02,
  0x34, 0x00, 0x00, 0x00, 0x04, 0x00, 0x04, 0x00, 0x04, 0x00, 0x00, 0x00,
  0x23, 0x00, 0x00, 0x00, 0x73, 0x65, 0x71, 0x75, 0x65, 0x6e, 0x74, 0x69,
  0x61, 0x6c, 0x2f, 0x63, 0x6f, 0x6e, 0x76, 0x31, 0x64, 0x2f, 0x43, 0x6f,
  0x6e, 0x76, 0x31, 0x44, 0x2f, 0x45, 0x78, 0x70, 0x61, 0x6e, 0x64, 0x44,
  0x69, 0x6d, 0x73, 0x00, 0x01, 0x00, 0x00, 0x00, 0x04, 0x00, 0x00, 0x00,
  0x00, 0x00, 0x16, 0x00, 0x1c, 0x00, 0x18, 0x00, 0x17, 0x00, 0x10, 0x00,
  0x0c, 0x00, 0x08, 0x00, 0x00, 0x00, 0x00, 0x00, 0x00, 0x00, 0x07, 0x00,
  0x16, 0x00, 0x00, 0x00, 0x00, 0x00, 0x00, 0x01, 0x20, 0x00, 0x00, 0x00,
  0x3c, 0x00, 0x00, 0x00, 0x01, 0x00, 0x00, 0x00, 0x00, 0x00, 0x00, 0x09,
  0x48, 0x00, 0x00, 0x00, 0x0c, 0x00, 0x0c, 0x00, 0x00, 0x00, 0x00, 0x00,
  0x08, 0x00, 0x04, 0x00, 0x0c, 0x00, 0x00, 0x00, 0x08, 0x00, 0x00, 0x00,
  0x10, 0x00, 0x00, 0x00, 0x01, 0x00, 0x00, 0x00, 0x0f, 0x00, 0x00, 0x00,
  0x00, 0x00, 0x00, 0x00, 0x01, 0x00, 0x00, 0x00, 0x4d, 0xe3, 0x62, 0x3d,
  0x13, 0x00, 0x00, 0x00, 0x73, 0x65, 0x72, 0x76, 0x69, 0x6e, 0x67, 0x5f,
  0x64, 0x65, 0x66, 0x61, 0x75, 0x6c, 0x74, 0x5f, 0x78, 0x3a, 0x30, 0x00,
  0x02, 0x00, 0x00, 0x00, 0x01, 0x00, 0x00, 0x00, 0x8a, 0x02, 0x00, 0x00,
  0x05, 0x00, 0x00, 0x00, 0x6c, 0x00, 0x00, 0x00, 0x4c, 0x00, 0x00, 0x00,
  0x2c, 0x00, 0x00, 0x00, 0x18, 0x00, 0x00, 0x00, 0x04, 0x00, 0x00, 0x00,
  0xd0, 0xff, 0xff, 0xff, 0x19, 0x00, 0x00, 0x00, 0x02, 0x00, 0x00, 0x00,
  0x00, 0x00, 0x00, 0x19, 0xe0, 0xff, 0xff, 0xff, 0x09, 0x00, 0x00, 0x00,
  0x04, 0x00, 0x00, 0x00, 0x00, 0x00, 0x00, 0x09, 0xf0, 0xff, 0xff, 0xff,
  0x11, 0x00, 0x00, 0x00, 0x02, 0x00, 0x00, 0x00, 0x00, 0x00, 0x00, 0x11,
  0x0c, 0x00, 0x10, 0x00, 0x0f, 0x00, 0x00, 0x00, 0x08, 0x00, 0x04, 0x00,
  0x0c, 0x00, 0x00, 0x00, 0x03, 0x00, 0x00, 0x00, 0x03, 0x00, 0x00, 0x00,
  0x00, 0x00, 0x00, 0x03, 0x0c, 0x00, 0x0c, 0x00, 0x0b, 0x00, 0x00, 0x00,
  0x00, 0x00, 0x04, 0x00, 0x0c, 0x00, 0x00, 0x00, 0x16, 0x00, 0x00, 0x00,
  0x00, 0x00, 0x00, 0x16
};
unsigned int tflite_learn_13_len = 6448;
#endif // _EI_CLASSIFIER_TFLITE_LEARN_13_H_
